custom_quantize_layers:
    /model.22/cv4.0/cv4.0.1/conv/Conv_output_0: float16
    /model.22/cv4.0/cv4.0.1/act/Mul_output_0: float16
    /model.22/cv4.0/cv4.0.2/Conv_output_0: float16
    /model.22/Concat_output_0: float16
    /model.22/Reshape_6_output_0: float16
    /model.22/Slice_2_output_0: float16
    /model.22/Slice_3_output_0: float16
    /model.22/Mul_3_output_0: float16
    /model.22/Add_3_output_0: float16
    /model.22/Mul_4_output_0: float16
    /model.22/Concat_6_output_0_int8: float16
    /model.22/Concat_6_output_0: float16
    /model.22/Sigmoid_1_output_0: float16
    /model.22/cv4.1/cv4.1.1/conv/Conv_output_0: float16
    /model.22/cv4.1/cv4.1.1/act/Mul_output_0: float16
    /model.22/cv4.1/cv4.1.2/Conv_output_0: float16
    /model.22/Reshape_1_output_0: float16
    /model.22/cv4.2/cv4.2.1/conv/Conv_output_0: float16
    /model.22/cv4.2/cv4.2.1/act/Mul_output_0: float16
    /model.22/cv4.2/cv4.2.2/Conv_output_0: float16
    /model.22/Reshape_2_output_0: float16
quantize_parameters:
    images:
        qtype: asym
        qmethod: layer
        dtype: float32
        min:
        -   0.0
        max:
        -   1.0
        scale: []
        zero_point: []
        ori_min:
        -   0.0
        ori_max:
        -   1.0
    /model.0/conv/Conv_output_0:
        qtype: asym
        qmethod: layer
        dtype: int8
        min:
        -   -38.275352478027344
        max:
        -   39.80441665649414
        scale:
        -   0.30619517307655486
        zero_point:
        -   -3
        ori_min:
        -   -38.275352478027344
        ori_max:
        -   39.80441665649414
    /model.0/act/Mul_output_0:
        qtype: asym
        qmethod: layer
        dtype: int8
        min:
        -   -0.27846458554267883
        max:
        -   39.80441665649414
        scale:
        -   0.15718776957661498
        zero_point:
        -   -126
        ori_min:
        -   -0.27846458554267883
        ori_max:
        -   39.80441665649414
    /model.1/conv/Conv_output_0:
        qtype: asym
        qmethod: layer
        dtype: int8
        min:
        -   -89.42103576660156
        max:
        -   88.978515625
        scale:
        -   0.6996060838886335
        zero_point:
        -   0
        ori_min:
        -   -89.42103576660156
        ori_max:
        -   88.978515625
    /model.1/act/Mul_output_0:
        qtype: asym
        qmethod: layer
        dtype: int8
        min:
        -   -0.27846455574035645
        max:
        -   88.978515625
        scale:
        -   0.3500273732578053
        zero_point:
        -   -127
        ori_min:
        -   -0.27846455574035645
        ori_max:
        -   88.978515625
    /model.2/cv1/conv/Conv_output_0:
        qtype: asym
        qmethod: layer
        dtype: int8
        min:
        -   -88.24304962158203
        max:
        -   62.4127197265625
        scale:
        -   0.5908069386201746
        zero_point:
        -   21
        ori_min:
        -   -88.24304962158203
        ori_max:
        -   62.4127197265625
    /model.2/cv1/act/Mul_output_0:
        qtype: asym
        qmethod: layer
        dtype: int8
        min:
        -   -0.27846458554267883
        max:
        -   62.4127197265625
        scale:
        -   0.24584778161609874
        zero_point:
        -   -127
        ori_min:
        -   -0.27846458554267883
        ori_max:
        -   62.4127197265625
    /model.2/Split_output_0:
        qtype: asym
        qmethod: layer
        dtype: int8
        min:
        -   -0.27846458554267883
        max:
        -   62.4127197265625
        scale:
        -   0.24584778161609874
        zero_point:
        -   -127
        ori_min:
        -   -0.27846458554267883
        ori_max:
        -   62.4127197265625
    /model.2/Split_output_1:
        qtype: asym
        qmethod: layer
        dtype: int8
        min:
        -   -0.27846455574035645
        max:
        -   27.619028091430664
        scale:
        -   0.10940193194969028
        zero_point:
        -   -125
        ori_min:
        -   -0.27846455574035645
        ori_max:
        -   27.619028091430664
    /model.2/m.0/cv1/conv/Conv_output_0:
        qtype: asym
        qmethod: layer
        dtype: int8
        min:
        -   -37.166175842285156
        max:
        -   20.569007873535156
        scale:
        -   0.22641248516007967
        zero_point:
        -   36
        ori_min:
        -   -37.166175842285156
        ori_max:
        -   20.569007873535156
    /model.2/m.0/cv1/act/Mul_output_0:
        qtype: asym
        qmethod: layer
        dtype: int8
        min:
        -   -0.27846455574035645
        max:
        -   20.569007873535156
        scale:
        -   0.08175479384029613
        zero_point:
        -   -125
        ori_min:
        -   -0.27846455574035645
        ori_max:
        -   20.569007873535156
    /model.2/m.0/cv2/conv/Conv_output_0:
        qtype: asym
        qmethod: layer
        dtype: int8
        min:
        -   -47.62665557861328
        max:
        -   28.776079177856445
        scale:
        -   0.2996185676724303
        zero_point:
        -   31
        ori_min:
        -   -47.62665557861328
        ori_max:
        -   28.776079177856445
    /model.2/m.0/cv2/act/Mul_output_0:
        qtype: asym
        qmethod: layer
        dtype: int8
        min:
        -   -0.27846458554267883
        max:
        -   28.776079177856445
        scale:
        -   0.11393938730744754
        zero_point:
        -   -126
        ori_min:
        -   -0.27846458554267883
        ori_max:
        -   28.776079177856445
    /model.2/m.0/Add_output_0:
        qtype: asym
        qmethod: layer
        dtype: int8
        min:
        -   -0.5569288730621338
        max:
        -   36.900108337402344
        scale:
        -   0.14689034200182147
        zero_point:
        -   -124
        ori_min:
        -   -0.5569288730621338
        ori_max:
        -   36.900108337402344
    /model.2/Concat_output_0:
        qtype: asym
        qmethod: layer
        dtype: int8
        min:
        -   -0.5569288730621338
        max:
        -   62.4127197265625
        scale:
        -   0.24693979842990052
        zero_point:
        -   -126
        ori_min:
        -   -0.5569288730621338
        ori_max:
        -   62.4127197265625
    /model.2/cv2/conv/Conv_output_0:
        qtype: asym
        qmethod: layer
        dtype: int8
        min:
        -   -25.960060119628906
        max:
        -   10.623214721679688
        scale:
        -   0.14346382290709253
        zero_point:
        -   53
        ori_min:
        -   -25.960060119628906
        ori_max:
        -   10.623214721679688
    /model.2/cv2/act/Mul_output_0:
        qtype: asym
        qmethod: layer
        dtype: int8
        min:
        -   -0.27846455574035645
        max:
        -   10.622956275939941
        scale:
        -   0.04275066992815803
        zero_point:
        -   -121
        ori_min:
        -   -0.27846455574035645
        ori_max:
        -   10.622956275939941
    /model.3/conv/Conv_output_0:
        qtype: asym
        qmethod: layer
        dtype: int8
        min:
        -   -13.163402557373047
        max:
        -   7.505218982696533
        scale:
        -   0.08105341780419444
        zero_point:
        -   34
        ori_min:
        -   -13.163402557373047
        ori_max:
        -   7.505218982696533
    /model.3/act/Mul_output_0:
        qtype: asym
        qmethod: layer
        dtype: int8
        min:
        -   -0.27846458554267883
        max:
        -   7.501092433929443
        scale:
        -   0.03050806674302793
        zero_point:
        -   -119
        ori_min:
        -   -0.27846458554267883
        ori_max:
        -   7.501092433929443
    /model.4/cv1/conv/Conv_output_0:
        qtype: asym
        qmethod: layer
        dtype: int8
        min:
        -   -16.73859214782715
        max:
        -   8.68655776977539
        scale:
        -   0.099706470265108
        zero_point:
        -   40
        ori_min:
        -   -16.73859214782715
        ori_max:
        -   8.68655776977539
    /model.4/cv1/act/Mul_output_0:
        qtype: asym
        qmethod: layer
        dtype: int8
        min:
        -   -0.27846458554267883
        max:
        -   8.685091018676758
        scale:
        -   0.035151198447919356
        zero_point:
        -   -120
        ori_min:
        -   -0.27846458554267883
        ori_max:
        -   8.685091018676758
    /model.4/Split_output_0:
        qtype: asym
        qmethod: layer
        dtype: int8
        min:
        -   -0.27846458554267883
        max:
        -   8.685091018676758
        scale:
        -   0.035151198447919356
        zero_point:
        -   -120
        ori_min:
        -   -0.27846458554267883
        ori_max:
        -   8.685091018676758
    /model.4/Split_output_1:
        qtype: asym
        qmethod: layer
        dtype: int8
        min:
        -   -0.27846455574035645
        max:
        -   4.991562843322754
        scale:
        -   0.020666774113972983
        zero_point:
        -   -115
        ori_min:
        -   -0.27846455574035645
        ori_max:
        -   4.991562843322754
    /model.4/m.0/cv1/conv/Conv_output_0:
        qtype: asym
        qmethod: layer
        dtype: int8
        min:
        -   -8.115118980407715
        max:
        -   5.521768093109131
        scale:
        -   0.05347798852359548
        zero_point:
        -   24
        ori_min:
        -   -8.115118980407715
        ori_max:
        -   5.521768093109131
    /model.4/m.0/cv1/act/Mul_output_0:
        qtype: asym
        qmethod: layer
        dtype: int8
        min:
        -   -0.27846458554267883
        max:
        -   5.4997758865356445
        scale:
        -   0.022659766557169895
        zero_point:
        -   -116
        ori_min:
        -   -0.27846458554267883
        ori_max:
        -   5.4997758865356445
    /model.4/m.0/cv2/conv/Conv_output_0:
        qtype: asym
        qmethod: layer
        dtype: int8
        min:
        -   -9.816764831542969
        max:
        -   7.137264728546143
        scale:
        -   0.06648639043172201
        zero_point:
        -   20
        ori_min:
        -   -9.816764831542969
        ori_max:
        -   7.137264728546143
    /model.4/m.0/cv2/act/Mul_output_0:
        qtype: asym
        qmethod: layer
        dtype: int8
        min:
        -   -0.27846458554267883
        max:
        -   7.131596088409424
        scale:
        -   0.029059061466478835
        zero_point:
        -   -118
        ori_min:
        -   -0.27846458554267883
        ori_max:
        -   7.131596088409424
    /model.4/m.0/Add_output_0:
        qtype: asym
        qmethod: layer
        dtype: int8
        min:
        -   -0.5569283962249756
        max:
        -   8.852441787719727
        scale:
        -   0.0368994909174302
        zero_point:
        -   -113
        ori_min:
        -   -0.5569283962249756
        ori_max:
        -   8.852441787719727
    /model.4/m.1/cv1/conv/Conv_output_0:
        qtype: asym
        qmethod: layer
        dtype: int8
        min:
        -   -9.256927490234375
        max:
        -   7.581016540527344
        scale:
        -   0.06603115306181066
        zero_point:
        -   12
        ori_min:
        -   -9.256927490234375
        ori_max:
        -   7.581016540527344
    /model.4/m.1/cv1/act/Mul_output_0:
        qtype: asym
        qmethod: layer
        dtype: int8
        min:
        -   -0.27846455574035645
        max:
        -   7.577151298522949
        scale:
        -   0.03080633668338551
        zero_point:
        -   -119
        ori_min:
        -   -0.27846455574035645
        ori_max:
        -   7.577151298522949
    /model.4/m.1/cv2/conv/Conv_output_0:
        qtype: asym
        qmethod: layer
        dtype: int8
        min:
        -   -18.641586303710938
        max:
        -   19.369468688964844
        scale:
        -   0.1490629607555913
        zero_point:
        -   -3
        ori_min:
        -   -18.641586303710938
        ori_max:
        -   19.369468688964844
    /model.4/m.1/cv2/act/Mul_output_0:
        qtype: asym
        qmethod: layer
        dtype: int8
        min:
        -   -0.27846455574035645
        max:
        -   19.369468688964844
        scale:
        -   0.07705071860668707
        zero_point:
        -   -124
        ori_min:
        -   -0.27846455574035645
        ori_max:
        -   19.369468688964844
    /model.4/m.1/Add_output_0:
        qtype: asym
        qmethod: layer
        dtype: int8
        min:
        -   -0.835237979888916
        max:
        -   21.308666229248047
        scale:
        -   0.08683884003583123
        zero_point:
        -   -118
        ori_min:
        -   -0.835237979888916
        ori_max:
        -   21.308666229248047
    /model.4/Concat_output_0:
        qtype: asym
        qmethod: layer
        dtype: int8
        min:
        -   -0.835237979888916
        max:
        -   21.308666229248047
        scale:
        -   0.08683884003583123
        zero_point:
        -   -118
        ori_min:
        -   -0.835237979888916
        ori_max:
        -   21.308666229248047
    /model.4/cv2/conv/Conv_output_0:
        qtype: asym
        qmethod: layer
        dtype: int8
        min:
        -   -9.011480331420898
        max:
        -   14.262439727783203
        scale:
        -   0.09127027474197687
        zero_point:
        -   -29
        ori_min:
        -   -9.011480331420898
        ori_max:
        -   14.262439727783203
    /model.4/cv2/act/Mul_output_0:
        qtype: asym
        qmethod: layer
        dtype: int8
        min:
        -   -0.27846458554267883
        max:
        -   14.262431144714355
        scale:
        -   0.057023120510811896
        zero_point:
        -   -123
        ori_min:
        -   -0.27846458554267883
        ori_max:
        -   14.262431144714355
    /model.5/conv/Conv_output_0:
        qtype: asym
        qmethod: layer
        dtype: int8
        min:
        -   -10.24715518951416
        max:
        -   11.839818954467773
        scale:
        -   0.08661558487836052
        zero_point:
        -   -10
        ori_min:
        -   -10.24715518951416
        ori_max:
        -   11.839818954467773
    /model.5/act/Mul_output_0:
        qtype: asym
        qmethod: layer
        dtype: int8
        min:
        -   -0.27846458554267883
        max:
        -   11.839734077453613
        scale:
        -   0.04752234769802467
        zero_point:
        -   -122
        ori_min:
        -   -0.27846458554267883
        ori_max:
        -   11.839734077453613
    /model.6/cv1/conv/Conv_output_0:
        qtype: asym
        qmethod: layer
        dtype: int8
        min:
        -   -14.804951667785645
        max:
        -   13.695043563842773
        scale:
        -   0.11176468718285654
        zero_point:
        -   4
        ori_min:
        -   -14.804951667785645
        ori_max:
        -   13.695043563842773
    /model.6/cv1/act/Mul_output_0:
        qtype: asym
        qmethod: layer
        dtype: int8
        min:
        -   -0.27846458554267883
        max:
        -   13.695029258728027
        scale:
        -   0.054798015075571395
        zero_point:
        -   -123
        ori_min:
        -   -0.27846458554267883
        ori_max:
        -   13.695029258728027
    /model.6/Split_output_0:
        qtype: asym
        qmethod: layer
        dtype: int8
        min:
        -   -0.27846458554267883
        max:
        -   13.695029258728027
        scale:
        -   0.054798015075571395
        zero_point:
        -   -123
        ori_min:
        -   -0.27846458554267883
        ori_max:
        -   13.695029258728027
    /model.6/Split_output_1:
        qtype: asym
        qmethod: layer
        dtype: int8
        min:
        -   -0.27846455574035645
        max:
        -   7.274197578430176
        scale:
        -   0.029618282879100125
        zero_point:
        -   -119
        ori_min:
        -   -0.27846455574035645
        ori_max:
        -   7.274197578430176
    /model.6/m.0/cv1/conv/Conv_output_0:
        qtype: asym
        qmethod: layer
        dtype: int8
        min:
        -   -9.652090072631836
        max:
        -   13.029619216918945
        scale:
        -   0.08894787956686581
        zero_point:
        -   -19
        ori_min:
        -   -9.652090072631836
        ori_max:
        -   13.029619216918945
    /model.6/m.0/cv1/act/Mul_output_0:
        qtype: asym
        qmethod: layer
        dtype: int8
        min:
        -   -0.27846455574035645
        max:
        -   13.02959156036377
        scale:
        -   0.05218845535727108
        zero_point:
        -   -123
        ori_min:
        -   -0.27846455574035645
        ori_max:
        -   13.02959156036377
    /model.6/m.0/cv2/conv/Conv_output_0:
        qtype: asym
        qmethod: layer
        dtype: int8
        min:
        -   -11.905176162719727
        max:
        -   10.731277465820312
        scale:
        -   0.08877040638643152
        zero_point:
        -   6
        ori_min:
        -   -11.905176162719727
        ori_max:
        -   10.731277465820312
    /model.6/m.0/cv2/act/Mul_output_0:
        qtype: asym
        qmethod: layer
        dtype: int8
        min:
        -   -0.27846455574035645
        max:
        -   10.731043815612793
        scale:
        -   0.04317454263275745
        zero_point:
        -   -122
        ori_min:
        -   -0.27846455574035645
        ori_max:
        -   10.731043815612793
    /model.6/m.0/Add_output_0:
        qtype: asym
        qmethod: layer
        dtype: int8
        min:
        -   -0.5569251179695129
        max:
        -   10.649035453796387
        scale:
        -   0.043944943418689805
        zero_point:
        -   -115
        ori_min:
        -   -0.5569251179695129
        ori_max:
        -   10.649035453796387
    /model.6/m.1/cv1/conv/Conv_output_0:
        qtype: asym
        qmethod: layer
        dtype: int8
        min:
        -   -13.087469100952148
        max:
        -   12.936884880065918
        scale:
        -   0.10205629012163947
        zero_point:
        -   0
        ori_min:
        -   -13.087469100952148
        ori_max:
        -   12.936884880065918
    /model.6/m.1/cv1/act/Mul_output_0:
        qtype: asym
        qmethod: layer
        dtype: int8
        min:
        -   -0.27846458554267883
        max:
        -   12.936854362487793
        scale:
        -   0.05182478018835479
        zero_point:
        -   -123
        ori_min:
        -   -0.27846458554267883
        ori_max:
        -   12.936854362487793
    /model.6/m.1/cv2/conv/Conv_output_0:
        qtype: asym
        qmethod: layer
        dtype: int8
        min:
        -   -13.292125701904297
        max:
        -   17.276914596557617
        scale:
        -   0.119878589405733
        zero_point:
        -   -17
        ori_min:
        -   -13.292125701904297
        ori_max:
        -   17.276914596557617
    /model.6/m.1/cv2/act/Mul_output_0:
        qtype: asym
        qmethod: layer
        dtype: int8
        min:
        -   -0.27846458554267883
        max:
        -   17.276914596557617
        scale:
        -   0.06884462424353058
        zero_point:
        -   -124
        ori_min:
        -   -0.27846458554267883
        ori_max:
        -   17.276914596557617
    /model.6/m.1/Add_output_0:
        qtype: asym
        qmethod: layer
        dtype: int8
        min:
        -   -0.8348045349121094
        max:
        -   18.51510238647461
        scale:
        -   0.07588198792700675
        zero_point:
        -   -117
        ori_min:
        -   -0.8348045349121094
        ori_max:
        -   18.51510238647461
    /model.6/Concat_output_0:
        qtype: asym
        qmethod: layer
        dtype: int8
        min:
        -   -0.8348045349121094
        max:
        -   18.51510238647461
        scale:
        -   0.07588198792700675
        zero_point:
        -   -117
        ori_min:
        -   -0.8348045349121094
        ori_max:
        -   18.51510238647461
    /model.6/cv2/conv/Conv_output_0:
        qtype: asym
        qmethod: layer
        dtype: int8
        min:
        -   -10.043234825134277
        max:
        -   8.85394287109375
        scale:
        -   0.07410657920089422
        zero_point:
        -   8
        ori_min:
        -   -10.043234825134277
        ori_max:
        -   8.85394287109375
    /model.6/cv2/act/Mul_output_0:
        qtype: asym
        qmethod: layer
        dtype: int8
        min:
        -   -0.27846458554267883
        max:
        -   8.852678298950195
        scale:
        -   0.03580840346859951
        zero_point:
        -   -120
        ori_min:
        -   -0.27846458554267883
        ori_max:
        -   8.852678298950195
    /model.7/conv/Conv_output_0:
        qtype: asym
        qmethod: layer
        dtype: int8
        min:
        -   -10.176837921142578
        max:
        -   10.169954299926758
        scale:
        -   0.07979134204340917
        zero_point:
        -   0
        ori_min:
        -   -10.176837921142578
        ori_max:
        -   10.169954299926758
    /model.7/act/Mul_output_0:
        qtype: asym
        qmethod: layer
        dtype: int8
        min:
        -   -0.27846458554267883
        max:
        -   10.169565200805664
        scale:
        -   0.040972665828817034
        zero_point:
        -   -121
        ori_min:
        -   -0.27846458554267883
        ori_max:
        -   10.169565200805664
    /model.8/cv1/conv/Conv_output_0:
        qtype: asym
        qmethod: layer
        dtype: int8
        min:
        -   -11.930673599243164
        max:
        -   11.529590606689453
        scale:
        -   0.09200103610169653
        zero_point:
        -   2
        ori_min:
        -   -11.930673599243164
        ori_max:
        -   11.529590606689453
    /model.8/cv1/act/Mul_output_0:
        qtype: asym
        qmethod: layer
        dtype: int8
        min:
        -   -0.27846458554267883
        max:
        -   11.529478073120117
        scale:
        -   0.04630565748495214
        zero_point:
        -   -122
        ori_min:
        -   -0.27846458554267883
        ori_max:
        -   11.529478073120117
    /model.8/Split_output_0:
        qtype: asym
        qmethod: layer
        dtype: int8
        min:
        -   -0.27846458554267883
        max:
        -   11.529478073120117
        scale:
        -   0.04630565748495214
        zero_point:
        -   -122
        ori_min:
        -   -0.27846458554267883
        ori_max:
        -   11.529478073120117
    /model.8/Split_output_1:
        qtype: asym
        qmethod: layer
        dtype: int8
        min:
        -   -0.27846458554267883
        max:
        -   8.919905662536621
        scale:
        -   0.036072040188546275
        zero_point:
        -   -120
        ori_min:
        -   -0.27846458554267883
        ori_max:
        -   8.919905662536621
    /model.8/m.0/cv1/conv/Conv_output_0:
        qtype: asym
        qmethod: layer
        dtype: int8
        min:
        -   -10.668335914611816
        max:
        -   12.754233360290527
        scale:
        -   0.09185321284275429
        zero_point:
        -   -12
        ori_min:
        -   -10.668335914611816
        ori_max:
        -   12.754233360290527
    /model.8/m.0/cv1/act/Mul_output_0:
        qtype: asym
        qmethod: layer
        dtype: int8
        min:
        -   -0.27846455574035645
        max:
        -   12.754197120666504
        scale:
        -   0.051108477162379845
        zero_point:
        -   -123
        ori_min:
        -   -0.27846455574035645
        ori_max:
        -   12.754197120666504
    /model.8/m.0/cv2/conv/Conv_output_0:
        qtype: asym
        qmethod: layer
        dtype: int8
        min:
        -   -16.13536262512207
        max:
        -   18.251115798950195
        scale:
        -   0.13484893499636183
        zero_point:
        -   -8
        ori_min:
        -   -16.13536262512207
        ori_max:
        -   18.251115798950195
    /model.8/m.0/cv2/act/Mul_output_0:
        qtype: asym
        qmethod: layer
        dtype: int8
        min:
        -   -0.27846455574035645
        max:
        -   18.251115798950195
        scale:
        -   0.07266502099878648
        zero_point:
        -   -124
        ori_min:
        -   -0.27846455574035645
        ori_max:
        -   18.251115798950195
    /model.8/m.0/Add_output_0:
        qtype: asym
        qmethod: layer
        dtype: int8
        min:
        -   -0.5569285154342651
        max:
        -   20.03255271911621
        scale:
        -   0.08074306366490383
        zero_point:
        -   -121
        ori_min:
        -   -0.5569285154342651
        ori_max:
        -   20.03255271911621
    /model.8/Concat_output_0:
        qtype: asym
        qmethod: layer
        dtype: int8
        min:
        -   -0.5569285154342651
        max:
        -   20.03255271911621
        scale:
        -   0.08074306366490383
        zero_point:
        -   -121
        ori_min:
        -   -0.5569285154342651
        ori_max:
        -   20.03255271911621
    /model.8/cv2/conv/Conv_output_0:
        qtype: asym
        qmethod: layer
        dtype: int8
        min:
        -   -11.679362297058105
        max:
        -   9.868813514709473
        scale:
        -   0.0845026502422258
        zero_point:
        -   10
        ori_min:
        -   -11.679362297058105
        ori_max:
        -   9.868813514709473
    /model.8/cv2/act/Mul_output_0:
        qtype: asym
        qmethod: layer
        dtype: int8
        min:
        -   -0.27846455574035645
        max:
        -   9.868303298950195
        scale:
        -   0.03979124648898256
        zero_point:
        -   -121
        ori_min:
        -   -0.27846455574035645
        ori_max:
        -   9.868303298950195
    /model.9/cv1/conv/Conv_output_0:
        qtype: asym
        qmethod: layer
        dtype: int8
        min:
        -   -5.298667907714844
        max:
        -   8.417438507080078
        scale:
        -   0.05378865260703891
        zero_point:
        -   -29
        ori_min:
        -   -5.298667907714844
        ori_max:
        -   8.417438507080078
    /model.9/cv1/act/Mul_output_0:
        qtype: asym
        qmethod: layer
        dtype: int8
        min:
        -   -0.27846455574035645
        max:
        -   8.415578842163086
        scale:
        -   0.03409428783491546
        zero_point:
        -   -120
        ori_min:
        -   -0.27846455574035645
        ori_max:
        -   8.415578842163086
    /model.9/m/MaxPool_output_0:
        qtype: asym
        qmethod: layer
        dtype: int8
        min:
        -   -0.27846455574035645
        max:
        -   8.415578842163086
        scale:
        -   0.03409428783491546
        zero_point:
        -   -120
        ori_min:
        -   -0.26906415820121765
        ori_max:
        -   8.415578842163086
    /model.9/m_1/MaxPool_output_0:
        qtype: asym
        qmethod: layer
        dtype: int8
        min:
        -   -0.27846455574035645
        max:
        -   8.415578842163086
        scale:
        -   0.03409428783491546
        zero_point:
        -   -120
        ori_min:
        -   -0.24432513117790222
        ori_max:
        -   8.415578842163086
    /model.9/m_2/MaxPool_output_0:
        qtype: asym
        qmethod: layer
        dtype: int8
        min:
        -   -0.27846455574035645
        max:
        -   8.415578842163086
        scale:
        -   0.03409428783491546
        zero_point:
        -   -120
        ori_min:
        -   -0.23482482135295868
        ori_max:
        -   8.415578842163086
    /model.9/Concat_output_0:
        qtype: asym
        qmethod: layer
        dtype: int8
        min:
        -   -0.27846455574035645
        max:
        -   8.415578842163086
        scale:
        -   0.03409428783491546
        zero_point:
        -   -120
        ori_min:
        -   -0.27846455574035645
        ori_max:
        -   8.415578842163086
    /model.9/cv2/conv/Conv_output_0:
        qtype: asym
        qmethod: layer
        dtype: int8
        min:
        -   -11.184965133666992
        max:
        -   5.561479091644287
        scale:
        -   0.06567233029533835
        zero_point:
        -   42
        ori_min:
        -   -11.184965133666992
        ori_max:
        -   5.561479091644287
    /model.9/cv2/act/Mul_output_0:
        qtype: asym
        qmethod: layer
        dtype: int8
        min:
        -   -0.27846458554267883
        max:
        -   5.540187835693359
        scale:
        -   0.022818244789160932
        zero_point:
        -   -116
        ori_min:
        -   -0.27846458554267883
        ori_max:
        -   5.540187835693359
    /model.10/Resize_output_0:
        qtype: asym
        qmethod: layer
        dtype: int8
        min:
        -   -0.27846458554267883
        max:
        -   5.540187835693359
        scale:
        -   0.022818244789160932
        zero_point:
        -   -116
        ori_min:
        -   -0.27846458554267883
        ori_max:
        -   5.540187835693359
    /model.11/Concat_output_0:
        qtype: asym
        qmethod: layer
        dtype: int8
        min:
        -   -0.27846458554267883
        max:
        -   8.852678298950195
        scale:
        -   0.03580840346859951
        zero_point:
        -   -120
        ori_min:
        -   -0.27846458554267883
        ori_max:
        -   8.852678298950195
    /model.12/cv1/conv/Conv_output_0:
        qtype: asym
        qmethod: layer
        dtype: int8
        min:
        -   -10.726699829101562
        max:
        -   8.170247077941895
        scale:
        -   0.07410567414526846
        zero_point:
        -   17
        ori_min:
        -   -10.726699829101562
        ori_max:
        -   8.170247077941895
    /model.12/cv1/act/Mul_output_0:
        qtype: asym
        qmethod: layer
        dtype: int8
        min:
        -   -0.27846458554267883
        max:
        -   8.167935371398926
        scale:
        -   0.03312313708604551
        zero_point:
        -   -120
        ori_min:
        -   -0.27846458554267883
        ori_max:
        -   8.167935371398926
    /model.12/Split_output_0:
        qtype: asym
        qmethod: layer
        dtype: int8
        min:
        -   -0.27846458554267883
        max:
        -   8.167935371398926
        scale:
        -   0.03312313708604551
        zero_point:
        -   -120
        ori_min:
        -   -0.27846458554267883
        ori_max:
        -   8.167935371398926
    /model.12/Split_output_1:
        qtype: asym
        qmethod: layer
        dtype: int8
        min:
        -   -0.27846458554267883
        max:
        -   7.695530891418457
        scale:
        -   0.031270570497886806
        zero_point:
        -   -119
        ori_min:
        -   -0.27846458554267883
        ori_max:
        -   7.695530891418457
    /model.12/m.0/cv1/conv/Conv_output_0:
        qtype: asym
        qmethod: layer
        dtype: int8
        min:
        -   -9.437966346740723
        max:
        -   9.476966857910156
        scale:
        -   0.07417620864568972
        zero_point:
        -   -1
        ori_min:
        -   -9.437966346740723
        ori_max:
        -   9.476966857910156
    /model.12/m.0/cv1/act/Mul_output_0:
        qtype: asym
        qmethod: layer
        dtype: int8
        min:
        -   -0.27846458554267883
        max:
        -   9.476240158081055
        scale:
        -   0.038253744092642095
        zero_point:
        -   -121
        ori_min:
        -   -0.27846458554267883
        ori_max:
        -   9.476240158081055
    /model.12/m.0/cv2/conv/Conv_output_0:
        qtype: asym
        qmethod: layer
        dtype: int8
        min:
        -   -11.46396541595459
        max:
        -   11.392078399658203
        scale:
        -   0.08963154437495213
        zero_point:
        -   0
        ori_min:
        -   -11.46396541595459
        ori_max:
        -   11.392078399658203
    /model.12/m.0/cv2/act/Mul_output_0:
        qtype: asym
        qmethod: layer
        dtype: int8
        min:
        -   -0.27846455574035645
        max:
        -   11.391949653625488
        scale:
        -   0.04576633023280723
        zero_point:
        -   -122
        ori_min:
        -   -0.27846455574035645
        ori_max:
        -   11.391949653625488
    /model.12/Concat_output_0:
        qtype: asym
        qmethod: layer
        dtype: int8
        min:
        -   -0.27846458554267883
        max:
        -   11.391949653625488
        scale:
        -   0.045766330349679085
        zero_point:
        -   -122
        ori_min:
        -   -0.27846458554267883
        ori_max:
        -   11.391949653625488
    /model.12/cv2/conv/Conv_output_0:
        qtype: asym
        qmethod: layer
        dtype: int8
        min:
        -   -11.112762451171875
        max:
        -   8.115440368652344
        scale:
        -   0.07540471694048713
        zero_point:
        -   19
        ori_min:
        -   -11.112762451171875
        ori_max:
        -   8.115440368652344
    /model.12/cv2/act/Mul_output_0:
        qtype: asym
        qmethod: layer
        dtype: int8
        min:
        -   -0.27846458554267883
        max:
        -   8.113015174865723
        scale:
        -   0.032907763766307455
        zero_point:
        -   -120
        ori_min:
        -   -0.27846458554267883
        ori_max:
        -   8.113015174865723
    /model.13/Resize_output_0:
        qtype: asym
        qmethod: layer
        dtype: int8
        min:
        -   -0.27846458554267883
        max:
        -   8.113015174865723
        scale:
        -   0.032907763766307455
        zero_point:
        -   -120
        ori_min:
        -   -0.27846458554267883
        ori_max:
        -   8.113015174865723
    /model.14/Concat_output_0:
        qtype: asym
        qmethod: layer
        dtype: int8
        min:
        -   -0.27846458554267883
        max:
        -   14.262431144714355
        scale:
        -   0.057023120510811896
        zero_point:
        -   -123
        ori_min:
        -   -0.27846458554267883
        ori_max:
        -   14.262431144714355
    /model.15/cv1/conv/Conv_output_0:
        qtype: asym
        qmethod: layer
        dtype: int8
        min:
        -   -9.38478946685791
        max:
        -   9.631985664367676
        scale:
        -   0.07457558874990426
        zero_point:
        -   -2
        ori_min:
        -   -9.38478946685791
        ori_max:
        -   9.631985664367676
    /model.15/cv1/act/Mul_output_0:
        qtype: asym
        qmethod: layer
        dtype: int8
        min:
        -   -0.27846458554267883
        max:
        -   9.631354331970215
        scale:
        -   0.0388620349706388
        zero_point:
        -   -121
        ori_min:
        -   -0.27846458554267883
        ori_max:
        -   9.631354331970215
    /model.15/Split_output_0:
        qtype: asym
        qmethod: layer
        dtype: int8
        min:
        -   -0.27846458554267883
        max:
        -   9.631354331970215
        scale:
        -   0.0388620349706388
        zero_point:
        -   -121
        ori_min:
        -   -0.27846458554267883
        ori_max:
        -   9.631354331970215
    /model.15/Split_output_1:
        qtype: asym
        qmethod: layer
        dtype: int8
        min:
        -   -0.27846458554267883
        max:
        -   6.385092735290527
        scale:
        -   0.02613159733660081
        zero_point:
        -   -117
        ori_min:
        -   -0.27846458554267883
        ori_max:
        -   6.385092735290527
    /model.15/m.0/cv1/conv/Conv_output_0:
        qtype: asym
        qmethod: layer
        dtype: int8
        min:
        -   -9.84755802154541
        max:
        -   6.919590950012207
        scale:
        -   0.06575352537865732
        zero_point:
        -   22
        ori_min:
        -   -9.84755802154541
        ori_max:
        -   6.919590950012207
    /model.15/m.0/cv1/act/Mul_output_0:
        qtype: asym
        qmethod: layer
        dtype: int8
        min:
        -   -0.27846458554267883
        max:
        -   6.912759304046631
        scale:
        -   0.02820087799838945
        zero_point:
        -   -118
        ori_min:
        -   -0.27846458554267883
        ori_max:
        -   6.912759304046631
    /model.15/m.0/cv2/conv/Conv_output_0:
        qtype: asym
        qmethod: layer
        dtype: int8
        min:
        -   -12.449950218200684
        max:
        -   11.925734519958496
        scale:
        -   0.09559092054180071
        zero_point:
        -   2
        ori_min:
        -   -12.449950218200684
        ori_max:
        -   11.925734519958496
    /model.15/m.0/cv2/act/Mul_output_0:
        qtype: asym
        qmethod: layer
        dtype: int8
        min:
        -   -0.27846455574035645
        max:
        -   11.925655364990234
        scale:
        -   0.04785929380678663
        zero_point:
        -   -122
        ori_min:
        -   -0.27846455574035645
        ori_max:
        -   11.925655364990234
    /model.15/Concat_output_0:
        qtype: asym
        qmethod: layer
        dtype: int8
        min:
        -   -0.27846458554267883
        max:
        -   11.925655364990234
        scale:
        -   0.04785929392365848
        zero_point:
        -   -122
        ori_min:
        -   -0.27846458554267883
        ori_max:
        -   11.925655364990234
    /model.15/cv2/conv/Conv_output_0:
        qtype: asym
        qmethod: layer
        dtype: int8
        min:
        -   -17.91066551208496
        max:
        -   10.56879711151123
        scale:
        -   0.11168416715135761
        zero_point:
        -   32
        ori_min:
        -   -17.91066551208496
        ori_max:
        -   10.56879711151123
    /model.15/cv2/act/Mul_output_0:
        qtype: asym
        qmethod: layer
        dtype: int8
        min:
        -   -0.27846458554267883
        max:
        -   10.568525314331055
        scale:
        -   0.042537215293622484
        zero_point:
        -   -121
        ori_min:
        -   -0.27846458554267883
        ori_max:
        -   10.568525314331055
    /model.16/conv/Conv_output_0:
        qtype: asym
        qmethod: layer
        dtype: int8
        min:
        -   -9.367548942565918
        max:
        -   9.430057525634766
        scale:
        -   0.07371610379686543
        zero_point:
        -   -1
        ori_min:
        -   -9.367548942565918
        ori_max:
        -   9.430057525634766
    /model.16/act/Mul_output_0:
        qtype: asym
        qmethod: layer
        dtype: int8
        min:
        -   -0.27846458554267883
        max:
        -   9.429301261901855
        scale:
        -   0.038069669989978565
        zero_point:
        -   -121
        ori_min:
        -   -0.27846458554267883
        ori_max:
        -   9.429301261901855
    /model.17/Concat_output_0:
        qtype: asym
        qmethod: layer
        dtype: int8
        min:
        -   -0.27846458554267883
        max:
        -   9.429301261901855
        scale:
        -   0.038069669989978565
        zero_point:
        -   -121
        ori_min:
        -   -0.27846458554267883
        ori_max:
        -   9.429301261901855
    /model.18/cv1/conv/Conv_output_0:
        qtype: asym
        qmethod: layer
        dtype: int8
        min:
        -   -11.998900413513184
        max:
        -   8.20483112335205
        scale:
        -   0.07923031975241268
        zero_point:
        -   23
        ori_min:
        -   -11.998900413513184
        ori_max:
        -   8.20483112335205
    /model.18/cv1/act/Mul_output_0:
        qtype: asym
        qmethod: layer
        dtype: int8
        min:
        -   -0.27846458554267883
        max:
        -   8.20258903503418
        scale:
        -   0.03325903380618376
        zero_point:
        -   -120
        ori_min:
        -   -0.27846458554267883
        ori_max:
        -   8.20258903503418
    /model.18/Split_output_0:
        qtype: asym
        qmethod: layer
        dtype: int8
        min:
        -   -0.27846458554267883
        max:
        -   7.829440116882324
        scale:
        -   0.03179570471539217
        zero_point:
        -   -119
        ori_min:
        -   -0.27846458554267883
        ori_max:
        -   7.829440116882324
    /model.18/Split_output_1:
        qtype: asym
        qmethod: layer
        dtype: int8
        min:
        -   -0.27846455574035645
        max:
        -   8.20258903503418
        scale:
        -   0.033259033689311907
        zero_point:
        -   -120
        ori_min:
        -   -0.27846455574035645
        ori_max:
        -   8.20258903503418
    /model.18/m.0/cv1/conv/Conv_output_0:
        qtype: asym
        qmethod: layer
        dtype: int8
        min:
        -   -9.212299346923828
        max:
        -   8.059326171875
        scale:
        -   0.06773186477960325
        zero_point:
        -   8
        ori_min:
        -   -9.212299346923828
        ori_max:
        -   8.059326171875
    /model.18/m.0/cv1/act/Mul_output_0:
        qtype: asym
        qmethod: layer
        dtype: int8
        min:
        -   -0.27846458554267883
        max:
        -   8.056778907775879
        scale:
        -   0.03268722938556297
        zero_point:
        -   -119
        ori_min:
        -   -0.27846458554267883
        ori_max:
        -   8.056778907775879
    /model.18/m.0/cv2/conv/Conv_output_0:
        qtype: asym
        qmethod: layer
        dtype: int8
        min:
        -   -11.08545207977295
        max:
        -   12.059318542480469
        scale:
        -   0.09076380636177811
        zero_point:
        -   -6
        ori_min:
        -   -11.08545207977295
        ori_max:
        -   12.059318542480469
    /model.18/m.0/cv2/act/Mul_output_0:
        qtype: asym
        qmethod: layer
        dtype: int8
        min:
        -   -0.27846455574035645
        max:
        -   12.059247970581055
        scale:
        -   0.04838318637773102
        zero_point:
        -   -122
        ori_min:
        -   -0.27846455574035645
        ori_max:
        -   12.059247970581055
    /model.18/Concat_output_0:
        qtype: asym
        qmethod: layer
        dtype: int8
        min:
        -   -0.27846458554267883
        max:
        -   12.059247970581055
        scale:
        -   0.048383186494602874
        zero_point:
        -   -122
        ori_min:
        -   -0.27846458554267883
        ori_max:
        -   12.059247970581055
    /model.18/cv2/conv/Conv_output_0:
        qtype: asym
        qmethod: layer
        dtype: int8
        min:
        -   -9.80408000946045
        max:
        -   7.190951347351074
        scale:
        -   0.06664718179141774
        zero_point:
        -   19
        ori_min:
        -   -9.80408000946045
        ori_max:
        -   7.190951347351074
    /model.18/cv2/act/Mul_output_0:
        qtype: asym
        qmethod: layer
        dtype: int8
        min:
        -   -0.27846458554267883
        max:
        -   7.185537815093994
        scale:
        -   0.029270597649555582
        zero_point:
        -   -118
        ori_min:
        -   -0.27846458554267883
        ori_max:
        -   7.185537815093994
    /model.19/conv/Conv_output_0:
        qtype: asym
        qmethod: layer
        dtype: int8
        min:
        -   -12.339198112487793
        max:
        -   9.732705116271973
        scale:
        -   0.0865564832500383
        zero_point:
        -   15
        ori_min:
        -   -12.339198112487793
        ori_max:
        -   9.732705116271973
    /model.19/act/Mul_output_0:
        qtype: asym
        qmethod: layer
        dtype: int8
        min:
        -   -0.27846455574035645
        max:
        -   9.73212718963623
        scale:
        -   0.03925722253088858
        zero_point:
        -   -121
        ori_min:
        -   -0.27846455574035645
        ori_max:
        -   9.73212718963623
    /model.20/Concat_output_0:
        qtype: asym
        qmethod: layer
        dtype: int8
        min:
        -   -0.27846458554267883
        max:
        -   9.73212718963623
        scale:
        -   0.03925722264776043
        zero_point:
        -   -121
        ori_min:
        -   -0.27846458554267883
        ori_max:
        -   9.73212718963623
    /model.21/cv1/conv/Conv_output_0:
        qtype: asym
        qmethod: layer
        dtype: int8
        min:
        -   -10.555543899536133
        max:
        -   7.760578155517578
        scale:
        -   0.07182792962766162
        zero_point:
        -   19
        ori_min:
        -   -10.555543899536133
        ori_max:
        -   7.760578155517578
    /model.21/cv1/act/Mul_output_0:
        qtype: asym
        qmethod: layer
        dtype: int8
        min:
        -   -0.27846455574035645
        max:
        -   7.757272243499756
        scale:
        -   0.031512693330353385
        zero_point:
        -   -119
        ori_min:
        -   -0.27846455574035645
        ori_max:
        -   7.757272243499756
    /model.21/Split_output_0:
        qtype: asym
        qmethod: layer
        dtype: int8
        min:
        -   -0.27846455574035645
        max:
        -   7.757272243499756
        scale:
        -   0.031512693330353385
        zero_point:
        -   -119
        ori_min:
        -   -0.27846455574035645
        ori_max:
        -   7.757272243499756
    /model.21/Split_output_1:
        qtype: asym
        qmethod: layer
        dtype: int8
        min:
        -   -0.27846455574035645
        max:
        -   7.351219654083252
        scale:
        -   0.029920330234602385
        zero_point:
        -   -119
        ori_min:
        -   -0.27846455574035645
        ori_max:
        -   7.351219654083252
    /model.21/m.0/cv1/conv/Conv_output_0:
        qtype: asym
        qmethod: layer
        dtype: int8
        min:
        -   -10.022032737731934
        max:
        -   11.743080139160156
        scale:
        -   0.08535338383094937
        zero_point:
        -   -11
        ori_min:
        -   -10.022032737731934
        ori_max:
        -   11.743080139160156
    /model.21/m.0/cv1/act/Mul_output_0:
        qtype: asym
        qmethod: layer
        dtype: int8
        min:
        -   -0.27846458554267883
        max:
        -   11.742986679077148
        scale:
        -   0.04714294613576403
        zero_point:
        -   -122
        ori_min:
        -   -0.27846458554267883
        ori_max:
        -   11.742986679077148
    /model.21/m.0/cv2/conv/Conv_output_0:
        qtype: asym
        qmethod: layer
        dtype: int8
        min:
        -   -16.902774810791016
        max:
        -   12.151987075805664
        scale:
        -   0.113940242692536
        zero_point:
        -   20
        ori_min:
        -   -16.902774810791016
        ori_max:
        -   12.151987075805664
    /model.21/m.0/cv2/act/Mul_output_0:
        qtype: asym
        qmethod: layer
        dtype: int8
        min:
        -   -0.27846458554267883
        max:
        -   12.151923179626465
        scale:
        -   0.04874661868693782
        zero_point:
        -   -122
        ori_min:
        -   -0.27846458554267883
        ori_max:
        -   12.151923179626465
    /model.21/Concat_output_0:
        qtype: asym
        qmethod: layer
        dtype: int8
        min:
        -   -0.27846458554267883
        max:
        -   12.151923179626465
        scale:
        -   0.04874661868693782
        zero_point:
        -   -122
        ori_min:
        -   -0.27846458554267883
        ori_max:
        -   12.151923179626465
    /model.21/cv2/conv/Conv_output_0:
        qtype: asym
        qmethod: layer
        dtype: int8
        min:
        -   -28.877199172973633
        max:
        -   14.379769325256348
        scale:
        -   0.16963517058129404
        zero_point:
        -   42
        ori_min:
        -   -28.877199172973633
        ori_max:
        -   14.379769325256348
    /model.21/cv2/act/Mul_output_0:
        qtype: asym
        qmethod: layer
        dtype: int8
        min:
        -   -0.27846458554267883
        max:
        -   14.3797607421875
        scale:
        -   0.05748323657933403
        zero_point:
        -   -123
        ori_min:
        -   -0.27846458554267883
        ori_max:
        -   14.3797607421875
    /model.22/cv4.2/cv4.2.0/conv/Conv_output_0:
        qtype: asym
        qmethod: layer
        dtype: int8
        min:
        -   -10.257408142089844
        max:
        -   13.81505012512207
        scale:
        -   0.09440179712632123
        zero_point:
        -   -19
        ori_min:
        -   -10.257408142089844
        ori_max:
        -   13.81505012512207
    /model.22/cv4.2/cv4.2.0/act/Mul_output_0:
        qtype: asym
        qmethod: layer
        dtype: int8
        min:
        -   -0.27846455574035645
        max:
        -   13.81503677368164
        scale:
        -   0.05526863266439999
        zero_point:
        -   -123
        ori_min:
        -   -0.27846455574035645
        ori_max:
        -   13.81503677368164
    /model.22/cv4.2/cv4.2.1/conv/Conv_output_0:
        qtype: asym
        qmethod: layer
        dtype: int8
        min:
        -   -8.942041397094727
        max:
        -   13.591337203979492
        scale:
        -   0.08836619059244792
        zero_point:
        -   -27
        ori_min:
        -   -8.942041397094727
        ori_max:
        -   13.591337203979492
    /model.22/cv4.2/cv4.2.1/act/Mul_output_0:
        qtype: asym
        qmethod: layer
        dtype: int8
        min:
        -   -0.27846455574035645
        max:
        -   13.591320991516113
        scale:
        -   0.054391315871594
        zero_point:
        -   -123
        ori_min:
        -   -0.27846455574035645
        ori_max:
        -   13.591320991516113
    /model.22/cv4.2/cv4.2.2/Conv_output_0:
        qtype: asym
        qmethod: layer
        dtype: int8
        min:
        -   -7.0
        max:
        -   6.569899559020996
        scale:
        -   0.05321529238831763
        zero_point:
        -   4
        ori_min:
        -   -11.905176162719727
        ori_max:
        -   6.569899559020996
    /model.22/Reshape_2_output_0:
        qtype: asym
        qmethod: layer
        dtype: int8
        min:
        -   -7.0
        max:
        -   6.569899559020996
        scale:
        -   0.05321529238831763
        zero_point:
        -   4
        ori_min:
        -   -11.905176162719727
        ori_max:
        -   6.569899559020996
    /model.22/cv2.2/cv2.2.0/conv/Conv_output_0:
        qtype: asym
        qmethod: layer
        dtype: int8
        min:
        -   -9.52505874633789
        max:
        -   8.480945587158203
        scale:
        -   0.07061178169998468
        zero_point:
        -   7
        ori_min:
        -   -9.52505874633789
        ori_max:
        -   8.480945587158203
    /model.22/cv2.2/cv2.2.0/act/Mul_output_0:
        qtype: asym
        qmethod: layer
        dtype: int8
        min:
        -   -0.27846455574035645
        max:
        -   8.47918701171875
        scale:
        -   0.03434373163709453
        zero_point:
        -   -120
        ori_min:
        -   -0.27846455574035645
        ori_max:
        -   8.47918701171875
    /model.22/cv2.2/cv2.2.1/conv/Conv_output_0:
        qtype: asym
        qmethod: layer
        dtype: int8
        min:
        -   -27.067821502685547
        max:
        -   38.51520538330078
        scale:
        -   0.25718834072935814
        zero_point:
        -   -23
        ori_min:
        -   -27.067821502685547
        ori_max:
        -   38.51520538330078
    /model.22/cv2.2/cv2.2.1/act/Mul_output_0:
        qtype: asym
        qmethod: layer
        dtype: int8
        min:
        -   -0.27846455574035645
        max:
        -   38.51520538330078
        scale:
        -   0.1521320389766319
        zero_point:
        -   -126
        ori_min:
        -   -0.27846455574035645
        ori_max:
        -   38.51520538330078
    /model.22/cv2.2/cv2.2.2/Conv_output_0:
        qtype: asym
        qmethod: layer
        dtype: int8
        min:
        -   -6.6352081298828125
        max:
        -   12.334736824035645
        scale:
        -   0.07439194099575866
        zero_point:
        -   -39
        ori_min:
        -   -6.6352081298828125
        ori_max:
        -   12.334736824035645
    /model.22/cv3.2/cv3.2.0/conv/Conv_output_0:
        qtype: asym
        qmethod: layer
        dtype: int8
        min:
        -   -12.015791893005371
        max:
        -   6.429399013519287
        scale:
        -   0.07233408198637122
        zero_point:
        -   38
        ori_min:
        -   -12.015791893005371
        ori_max:
        -   6.429399013519287
    /model.22/cv3.2/cv3.2.0/act/Mul_output_0:
        qtype: asym
        qmethod: layer
        dtype: int8
        min:
        -   -0.27846455574035645
        max:
        -   6.419042587280273
        scale:
        -   0.026264733894198547
        zero_point:
        -   -117
        ori_min:
        -   -0.27846455574035645
        ori_max:
        -   6.419042587280273
    /model.22/cv3.2/cv3.2.1/conv/Conv_output_0:
        qtype: asym
        qmethod: layer
        dtype: int8
        min:
        -   -31.150108337402344
        max:
        -   29.90179443359375
        scale:
        -   0.23941922655292586
        zero_point:
        -   2
        ori_min:
        -   -31.150108337402344
        ori_max:
        -   29.90179443359375
    /model.22/cv3.2/cv3.2.1/act/Mul_output_0:
        qtype: asym
        qmethod: layer
        dtype: int8
        min:
        -   -0.27846455574035645
        max:
        -   29.90179443359375
        scale:
        -   0.11835395682091807
        zero_point:
        -   -126
        ori_min:
        -   -0.27846455574035645
        ori_max:
        -   29.90179443359375
    /model.22/cv3.2/cv3.2.2/Conv_output_0:
        qtype: asym
        qmethod: layer
        dtype: int8
        min:
        -   -28.464006423950195
        max:
        -   2.1738147735595703
        scale:
        -   0.12014831842160692
        zero_point:
        -   109
        ori_min:
        -   -28.464006423950195
        ori_max:
        -   2.1738147735595703
    /model.22/Concat_3_output_0:
        qtype: asym
        qmethod: layer
        dtype: float32
        min:
        -   -28.464006423950195
        max:
        -   12.334736824035645
        scale: []
        zero_point: []
        ori_min:
        -   -28.464006423950195
        ori_max:
        -   12.334736824035645
    /model.22/cv4.1/cv4.1.0/conv/Conv_output_0:
        qtype: asym
        qmethod: layer
        dtype: int8
        min:
        -   -16.065277099609375
        max:
        -   17.42167854309082
        scale:
        -   0.13132139467725568
        zero_point:
        -   -6
        ori_min:
        -   -16.065277099609375
        ori_max:
        -   17.42167854309082
    /model.22/cv4.1/cv4.1.0/act/Mul_output_0:
        qtype: asym
        qmethod: layer
        dtype: int8
        min:
        -   -0.27846455574035645
        max:
        -   17.42167854309082
        scale:
        -   0.06941232587776933
        zero_point:
        -   -124
        ori_min:
        -   -0.27846455574035645
        ori_max:
        -   17.42167854309082
    /model.22/cv4.1/cv4.1.1/conv/Conv_output_0:
        qtype: asym
        qmethod: layer
        dtype: int8
        min:
        -   -12.971625328063965
        max:
        -   13.11855411529541
        scale:
        -   0.1023144291896446
        zero_point:
        -   -1
        ori_min:
        -   -12.971625328063965
        ori_max:
        -   13.11855411529541
    /model.22/cv4.1/cv4.1.1/act/Mul_output_0:
        qtype: asym
        qmethod: layer
        dtype: int8
        min:
        -   -0.27846455574035645
        max:
        -   13.11852741241455
        scale:
        -   0.05253722340452905
        zero_point:
        -   -123
        ori_min:
        -   -0.27846455574035645
        ori_max:
        -   13.11852741241455
    /model.22/cv4.1/cv4.1.2/Conv_output_0:
        qtype: asym
        qmethod: layer
        dtype: int8
        min:
        -   -7.0
        max:
        -   5.798436164855957
        scale:
        -   0.050189945744533164
        zero_point:
        -   11
        ori_min:
        -   -7.02497673034668
        ori_max:
        -   5.798436164855957
    /model.22/Reshape_1_output_0:
        qtype: asym
        qmethod: layer
        dtype: int8
        min:
        -   -7.0
        max:
        -   5.798436164855957
        scale:
        -   0.050189945744533164
        zero_point:
        -   11
        ori_min:
        -   -7.02497673034668
        ori_max:
        -   5.798436164855957
    /model.22/cv2.1/cv2.1.0/conv/Conv_output_0:
        qtype: asym
        qmethod: layer
        dtype: int8
        min:
        -   -11.67408275604248
        max:
        -   8.09980297088623
        scale:
        -   0.07754464990952435
        zero_point:
        -   23
        ori_min:
        -   -11.67408275604248
        ori_max:
        -   8.09980297088623
    /model.22/cv2.1/cv2.1.0/act/Mul_output_0:
        qtype: asym
        qmethod: layer
        dtype: int8
        min:
        -   -0.27846458554267883
        max:
        -   8.097344398498535
        scale:
        -   0.03284630974133809
        zero_point:
        -   -120
        ori_min:
        -   -0.27846458554267883
        ori_max:
        -   8.097344398498535
    /model.22/cv2.1/cv2.1.1/conv/Conv_output_0:
        qtype: asym
        qmethod: layer
        dtype: int8
        min:
        -   -16.61639404296875
        max:
        -   37.976837158203125
        scale:
        -   0.21409110274969362
        zero_point:
        -   -50
        ori_min:
        -   -16.61639404296875
        ori_max:
        -   37.976837158203125
    /model.22/cv2.1/cv2.1.1/act/Mul_output_0:
        qtype: asym
        qmethod: layer
        dtype: int8
        min:
        -   -0.27846458554267883
        max:
        -   37.976837158203125
        scale:
        -   0.15002079115194433
        zero_point:
        -   -126
        ori_min:
        -   -0.27846458554267883
        ori_max:
        -   37.976837158203125
    /model.22/cv2.1/cv2.1.2/Conv_output_0:
        qtype: asym
        qmethod: layer
        dtype: int8
        min:
        -   -4.5761237144470215
        max:
        -   14.199552536010742
        scale:
        -   0.07363010294297162
        zero_point:
        -   -66
        ori_min:
        -   -4.5761237144470215
        ori_max:
        -   14.199552536010742
    /model.22/cv3.1/cv3.1.0/conv/Conv_output_0:
        qtype: asym
        qmethod: layer
        dtype: int8
        min:
        -   -10.988037109375
        max:
        -   6.177201271057129
        scale:
        -   0.06731466031542012
        zero_point:
        -   35
        ori_min:
        -   -10.988037109375
        ori_max:
        -   6.177201271057129
    /model.22/cv3.1/cv3.1.0/act/Mul_output_0:
        qtype: asym
        qmethod: layer
        dtype: int8
        min:
        -   -0.27846455574035645
        max:
        -   6.164402484893799
        scale:
        -   0.025266145257388843
        zero_point:
        -   -117
        ori_min:
        -   -0.27846455574035645
        ori_max:
        -   6.164402484893799
    /model.22/cv3.1/cv3.1.1/conv/Conv_output_0:
        qtype: asym
        qmethod: layer
        dtype: int8
        min:
        -   -53.05294418334961
        max:
        -   48.021400451660156
        scale:
        -   0.3963699789608226
        zero_point:
        -   6
        ori_min:
        -   -53.05294418334961
        ori_max:
        -   48.021400451660156
    /model.22/cv3.1/cv3.1.1/act/Mul_output_0:
        qtype: asym
        qmethod: layer
        dtype: int8
        min:
        -   -0.27846455574035645
        max:
        -   48.021400451660156
        scale:
        -   0.18941123532313928
        zero_point:
        -   -127
        ori_min:
        -   -0.27846455574035645
        ori_max:
        -   48.021400451660156
    /model.22/cv3.1/cv3.1.2/Conv_output_0:
        qtype: asym
        qmethod: layer
        dtype: int8
        min:
        -   -45.860755920410156
        max:
        -   1.732283592224121
        scale:
        -   0.1866393706377815
        zero_point:
        -   118
        ori_min:
        -   -45.860755920410156
        ori_max:
        -   1.732283592224121
    /model.22/Concat_2_output_0:
        qtype: asym
        qmethod: layer
        dtype: float32
        min:
        -   -45.860755920410156
        max:
        -   14.199552536010742
        scale: []
        zero_point: []
        ori_min:
        -   -45.860755920410156
        ori_max:
        -   14.199552536010742
    /model.22/cv4.0/cv4.0.0/conv/Conv_output_0:
        qtype: asym
        qmethod: layer
        dtype: int8
        min:
        -   -24.180273056030273
        max:
        -   15.40506649017334
        scale:
        -   0.1552366256713867
        zero_point:
        -   28
        ori_min:
        -   -24.180273056030273
        ori_max:
        -   15.40506649017334
    /model.22/cv4.0/cv4.0.0/act/Mul_output_0:
        qtype: asym
        qmethod: layer
        dtype: int8
        min:
        -   -0.27846458554267883
        max:
        -   15.405062675476074
        scale:
        -   0.06150402847458335
        zero_point:
        -   -123
        ori_min:
        -   -0.27846458554267883
        ori_max:
        -   15.405062675476074
    /model.22/cv4.0/cv4.0.1/conv/Conv_output_0:
        qtype: asym
        qmethod: layer
        dtype: int8
        min:
        -   -25.105165481567383
        max:
        -   12.550825119018555
        scale:
        -   0.1476705513748468
        zero_point:
        -   42
        ori_min:
        -   -25.105165481567383
        ori_max:
        -   12.550825119018555
    /model.22/cv4.0/cv4.0.1/act/Mul_output_0:
        qtype: asym
        qmethod: layer
        dtype: int8
        min:
        -   -0.27846458554267883
        max:
        -   12.550780296325684
        scale:
        -   0.05031076424262103
        zero_point:
        -   -122
        ori_min:
        -   -0.27846458554267883
        ori_max:
        -   12.550780296325684
    /model.22/cv4.0/cv4.0.2/Conv_output_0:
        qtype: asym
        qmethod: layer
        dtype: int8
        min:
        -   -6.905332565307617
        max:
        -   5.975926399230957
        scale:
        -   0.05051474103740617
        zero_point:
        -   9
        ori_min:
        -   -6.905332565307617
        ori_max:
        -   5.975926399230957
    /model.22/Concat_output_0:
        qtype: asym
        qmethod: layer
        dtype: int8
        min:
        -   -7.0
        max:
        -   6.569899559020996
        scale:
        -   0.05321529238831763
        zero_point:
        -   4
        ori_min:
        -   -11.905176162719727
        ori_max:
        -   6.569899559020996
    /model.22/Reshape_6_output_0:
        qtype: asym
        qmethod: layer
        dtype: int8
        min:
        -   -7.0
        max:
        -   6.569899559020996
        scale:
        -   0.05321529238831763
        zero_point:
        -   4
        ori_min:
        -   -11.905176162719727
        ori_max:
        -   6.569899559020996
    /model.22/Slice_2_output_0:
        qtype: asym
        qmethod: layer
        dtype: int8
        min:
        -   -6.15704870223999
        max:
        -   5.975926399230957
        scale:
        -   0.047580294515572344
        zero_point:
        -   1
        ori_min:
        -   -6.15704870223999
        ori_max:
        -   5.975926399230957
    /model.22/Slice_3_output_0:
        qtype: asym
        qmethod: layer
        dtype: int8
        min:
        -   -7.0
        max:
        -   6.569899559020996
        scale:
        -   0.05321529238831763
        zero_point:
        -   4
        ori_min:
        -   -11.905176162719727
        ori_max:
        -   6.569899559020996
    /model.22/Mul_3_output_0:
        qtype: asym
        qmethod: layer
        dtype: int8
        min:
        -   -12.31409740447998
        max:
        -   11.951852798461914
        scale:
        -   0.09516058903114469
        zero_point:
        -   1
        ori_min:
        -   -12.31409740447998
        ori_max:
        -   11.951852798461914
    /model.22/Add_3_output_0:
        qtype: asym
        qmethod: layer
        dtype: int8
        min:
        -   -2.3140974044799805
        max:
        -   84.15100860595703
        scale:
        -   0.339078847099753
        zero_point:
        -   -121
        ori_min:
        -   -2.3140974044799805
        ori_max:
        -   84.15100860595703
    /model.22/Mul_4_output_0:
        qtype: asym
        qmethod: layer
        dtype: int8
        min:
        -   -74.05111694335938
        max:
        -   739.8165283203125
        scale:
        -   3.191637824563419
        zero_point:
        -   -105
        ori_min:
        -   -74.05111694335938
        ori_max:
        -   739.8165283203125
    /model.22/Sigmoid_1_output_0:
        qtype: asym
        qmethod: layer
        dtype: int8
        min:
        -   0.0
        max:
        -   0.9986000061035156
        scale:
        -   0.003916078455307904
        zero_point:
        -   -128
        ori_min:
        -   6.8247318267822266e-06
        ori_max:
        -   0.9986000061035156
    /model.22/Concat_6_output_0:
        qtype: asym
        qmethod: layer
        dtype: float32
        min:
        -   -74.05111694335938
        max:
        -   739.8165283203125
        scale: []
        zero_point: []
        ori_min:
        -   -74.05111694335938
        ori_max:
        -   739.8165283203125
    /model.22/cv2.0/cv2.0.0/conv/Conv_output_0:
        qtype: asym
        qmethod: layer
        dtype: int8
        min:
        -   -11.119338035583496
        max:
        -   8.020381927490234
        scale:
        -   0.07505772534538718
        zero_point:
        -   20
        ori_min:
        -   -11.119338035583496
        ori_max:
        -   8.020381927490234
    /model.22/cv2.0/cv2.0.0/act/Mul_output_0:
        qtype: asym
        qmethod: layer
        dtype: int8
        min:
        -   -0.27846458554267883
        max:
        -   8.017746925354004
        scale:
        -   0.032534162787830126
        zero_point:
        -   -119
        ori_min:
        -   -0.27846458554267883
        ori_max:
        -   8.017746925354004
    /model.22/cv2.0/cv2.0.1/conv/Conv_output_0:
        qtype: asym
        qmethod: layer
        dtype: int8
        min:
        -   -21.76700210571289
        max:
        -   53.53309631347656
        scale:
        -   0.2952945036046645
        zero_point:
        -   -54
        ori_min:
        -   -21.76700210571289
        ori_max:
        -   53.53309631347656
    /model.22/cv2.0/cv2.0.1/act/Mul_output_0:
        qtype: asym
        qmethod: layer
        dtype: int8
        min:
        -   -0.27846458554267883
        max:
        -   53.53309631347656
        scale:
        -   0.21102572901576172
        zero_point:
        -   -127
        ori_min:
        -   -0.27846458554267883
        ori_max:
        -   53.53309631347656
    /model.22/cv2.0/cv2.0.2/Conv_output_0:
        qtype: asym
        qmethod: layer
        dtype: int8
        min:
        -   -6.014134883880615
        max:
        -   13.637460708618164
        scale:
        -   0.07706508075489718
        zero_point:
        -   -50
        ori_min:
        -   -6.014134883880615
        ori_max:
        -   13.637460708618164
    /model.22/cv3.0/cv3.0.0/conv/Conv_output_0:
        qtype: asym
        qmethod: layer
        dtype: int8
        min:
        -   -10.224245071411133
        max:
        -   6.966010570526123
        scale:
        -   0.06741276722328336
        zero_point:
        -   24
        ori_min:
        -   -10.224245071411133
        ori_max:
        -   6.966010570526123
    /model.22/cv3.0/cv3.0.0/act/Mul_output_0:
        qtype: asym
        qmethod: layer
        dtype: int8
        min:
        -   -0.27846458554267883
        max:
        -   6.959444999694824
        scale:
        -   0.02838395915779413
        zero_point:
        -   -118
        ori_min:
        -   -0.27846458554267883
        ori_max:
        -   6.959444999694824
    /model.22/cv3.0/cv3.0.1/conv/Conv_output_0:
        qtype: asym
        qmethod: layer
        dtype: int8
        min:
        -   -35.855552673339844
        max:
        -   23.703384399414062
        scale:
        -   0.23356445910883886
        zero_point:
        -   26
        ori_min:
        -   -35.855552673339844
        ori_max:
        -   23.703384399414062
    /model.22/cv3.0/cv3.0.1/act/Mul_output_0:
        qtype: asym
        qmethod: layer
        dtype: int8
        min:
        -   -0.27846455574035645
        max:
        -   23.703384399414062
        scale:
        -   0.09404646649080164
        zero_point:
        -   -125
        ori_min:
        -   -0.27846455574035645
        ori_max:
        -   23.703384399414062
    /model.22/cv3.0/cv3.0.2/Conv_output_0:
        qtype: asym
        qmethod: layer
        dtype: int8
        min:
        -   -22.410985946655273
        max:
        -   0.0
        scale:
        -   0.08788621939864813
        zero_point:
        -   127
        ori_min:
        -   -22.410985946655273
        ori_max:
        -   -0.23927927017211914
    /model.22/Concat_1_output_0:
        qtype: asym
        qmethod: layer
        dtype: float32
        min:
        -   -22.410985946655273
        max:
        -   13.637460708618164
        scale: []
        zero_point: []
        ori_min:
        -   -22.410985946655273
        ori_max:
        -   13.637460708618164
    /model.22/Constant_22_output_0:
        qtype: asym
        qmethod: layer
        dtype: int16
        min:
        -   0.0
        max:
        -   2.0
        scale:
        -   3.0518043793392844e-05
        zero_point:
        -   -32768
        ori_min:
        -   2.0
        ori_max:
        -   2.0
    /model.22/Constant_23_output_0:
        qtype: sym
        qmethod: layer
        dtype: int32
        min:
        -   -79.0
        max:
        -   79.0
        scale:
        -   3.6787241714441796e-08
        zero_point:
        -   0
        ori_min:
        -   0.0
        ori_max:
        -   79.0
    /model.22/Constant_24_output_0:
        qtype: asym
        qmethod: layer
        dtype: int16
        min:
        -   0.0
        max:
        -   32.0
        scale:
        -   0.0004882887006942855
        zero_point:
        -   -32768
        ori_min:
        -   8.0
        ori_max:
        -   32.0
    images_int8:
        qtype: asym
        qmethod: layer
        dtype: int8
        min:
        -   0.0
        max:
        -   1.0
        scale:
        -   0.00392156862745098
        zero_point:
        -   -128
        ori_min:
        -   0.0
        ori_max:
        -   1.0
    /model.22/Concat_1_output_0_int8:
        qtype: asym
        qmethod: layer
        dtype: int8
        min:
        -   -22.410985946655273
        max:
        -   13.637460708618164
        scale:
        -   0.14136645747166054
        zero_point:
        -   31
        ori_min:
        -   -22.410985946655273
        ori_max:
        -   13.637460708618164
    /model.22/Concat_2_output_0_int8:
        qtype: asym
        qmethod: layer
        dtype: int8
        min:
        -   -45.860755920410156
        max:
        -   14.199552536010742
        scale:
        -   0.235530621397729
        zero_point:
        -   67
        ori_min:
        -   -45.860755920410156
        ori_max:
        -   14.199552536010742
    /model.22/Concat_3_output_0_int8:
        qtype: asym
        qmethod: layer
        dtype: int8
        min:
        -   -28.464006423950195
        max:
        -   12.334736824035645
        scale:
        -   0.15999507156072879
        zero_point:
        -   50
        ori_min:
        -   -28.464006423950195
        ori_max:
        -   12.334736824035645
    /model.22/Concat_6_output_0_int8:
        qtype: asym
        qmethod: layer
        dtype: int8
        min:
        -   -74.05111694335938
        max:
        -   739.8165283203125
        scale:
        -   3.191637824563419
        zero_point:
        -   -105
        ori_min:
        -   -74.05111694335938
        ori_max:
        -   739.8165283203125
